{"num_merges": 500, "merges": [["e", "</w>"], ["t", "h"], ["s", "</w>"], ["t", "</w>"], ["d", "</w>"], ["r", "</w>"], ["a", "n"], ["y", "</w>"], ["o", "</w>"], ["o", "u"], ["n", "</w>"], ["i", "n"], ["l", "</w>"], ["e", "r"], ["th", "e</w>"], ["an", "d</w>"], ["h", "a"], ["e", "r</w>"], ["e", "a"], ["e", "n"], ["i", "s</w>"], ["f", "</w>"], ["l", "l</w>"], ["o", "r"], ["i", "</w>"], ["a", "</w>"], ["y", "ou"], ["t", "o</w>"], ["o", "n"], ["n", "o"], ["a", "r"], ["e", "s"], ["th", "</w>"], ["o", "m"], ["w", "i"], ["o", "f</w>"], ["g", "</w>"], ["i", "n</w>"], ["v", "e</w>"], ["t", "i"], ["a", "t</w>"], ["you", "</w>"], ["e", "s</w>"], ["e", "d</w>"], ["th", "e"], ["u", "s</w>"], ["h", "</w>"], ["in", "g</w>"], ["m", "</w>"], ["o", "n</w>"], ["w", "</w>"], ["k", "</w>"], ["l", "o"], ["h", "i"], ["m", "y</w>"], ["l", "i"], ["i", "t</w>"], ["m", "e</w>"], ["o", "r</w>"], ["l", "e"], ["s", "t"], ["m", "a"], ["th", "at</w>"], ["l", "a"], ["s", "t</w>"], ["an", "</w>"], ["e", "n</w>"], ["c", "a"], ["no", "t</w>"], ["r", "i"], ["c", "e</w>"], ["h", "e</w>"], ["r", "a"], ["s", "i"], ["l", "d</w>"], ["a", "s</w>"], ["w", "h"], ["s", "e</w>"], ["c", "h</w>"], ["er", "e</w>"], ["d", "i"], ["u", "r"], ["s", "e"], ["r", "o"], ["r", "e"], ["b", "u"], ["b", "e"], ["wi", "th</w>"], ["g", "h"], ["th", "ou"], ["f", "or</w>"], ["u", "n"], ["b", "e</w>"], ["bu", "t</w>"], ["a", "y</w>"], ["th", "is</w>"], ["h", "is</w>"], ["k", "e</w>"], ["l", "e</w>"], ["c", "om"], ["h", "o"], ["t", "a"], ["ha", "ve</w>"], ["you", "r</w>"], ["f", "a"], ["t", "er</w>"], ["le", "t</w>"], ["w", "ha"], ["w", "e"], ["r", "u"], ["wha", "t</w>"], ["thou", "</w>"], ["g", "o"], ["h", "ea"], ["l", "y</w>"], ["s", "o</w>"], ["gh", "t</w>"], ["hi", "m</w>"], ["e", "t</w>"], ["wi", "ll</w>"], ["s", "p"], ["d", "o</w>"], ["s", "ha"], ["a", "t"], ["d", "e"], ["f", "or"], ["th", "er</w>"], ["ou", "ld</w>"], ["r", "om"], ["ou", "r</w>"], ["p", "</w>"], ["s", "a"], ["v", "i"], ["no", "w</w>"], ["d", "s</w>"], ["m", "i"], ["r", "ea"], ["t", "s</w>"], ["d", "o"], ["ar", "e</w>"], ["s", "h"], ["a", "g"], ["or", "d</w>"], ["f", "i"], ["o", "d</w>"], ["q", "u"], ["a", "ll</w>"], ["s", "u"], ["on", "e</w>"], ["a", "r</w>"], ["m", "o"], ["l", "l"], ["sha", "ll</w>"], ["o", "l"], ["n", "o</w>"], ["w", "e</w>"], ["es", "s</w>"], ["b", "y</w>"], ["h", "er</w>"], ["ea", "r</w>"], ["an", "t"], ["e", "x"], ["m", "or"], ["m", "u"], ["c", "k</w>"], ["th", "y</w>"], ["c", "on"], ["m", "e"], ["i", "f</w>"], ["com", "e</w>"], ["w", "hi"], ["es", "t</w>"], ["m", "ar"], ["i", "r</w>"], ["n", "e"], ["en", "t</w>"], ["the", "e</w>"], ["l", "ord</w>"], ["er", "s</w>"], ["a", "l"], ["s", "c"], ["p", "o"], ["w", "n</w>"], ["d", "e</w>"], ["t", "y</w>"], ["c", "h"], ["a", "m</w>"], ["ant", "on"], ["b", "o"], ["t", "o"], ["we", "ll</w>"], ["w", "or"], ["ou", "n"], ["ca", "es"], ["v", "er"], ["caes", "ar</w>"], ["f", "rom"], ["from", "</w>"], ["m", "an</w>"], ["n", "i"], ["ea", "r"], ["go", "od</w>"], ["g", "i"], ["d", "y</w>"], ["ti", "on</w>"], ["ho", "w</w>"], ["c", "i"], ["o", "p"], ["ha", "m"], ["se", "l"], ["th", "ere</w>"], ["h", "ere</w>"], ["en", "ter</w>"], ["e", "l"], ["lo", "ve</w>"], ["p", "a"], ["mor", "e</w>"], ["whi", "ch</w>"], ["v", "er</w>"], ["in", "e</w>"], ["s", "he</w>"], ["p", "ar"], ["t", "e"], ["en", "ce</w>"], ["w", "as</w>"], ["g", "o</w>"], ["the", "y</w>"], ["t", "e</w>"], ["ham", "let</w>"], ["m", "on"], ["s", "si"], ["s", "om"], ["b", "a"], ["w", "ould</w>"], ["ma", "c"], ["b", "le</w>"], ["anton", "y</w>"], ["u", "p"], ["the", "n</w>"], ["wh", "en</w>"], ["g", "e</w>"], ["ou", "t</w>"], ["g", "u"], ["di", "d</w>"], ["l", "ea"], ["d", "es"], ["c", "e"], ["en", "d</w>"], ["en", "t"], ["d", "u"], ["sel", "f</w>"], ["k", "ing</w>"], ["t", "ru"], ["i", "r"], ["d", "er</w>"], ["ur", "e</w>"], ["in", "g"], ["g", "h</w>"], ["p", "p"], ["ou", "s</w>"], ["ha", "th</w>"], ["d", "ea"], ["the", "ir</w>"], ["p", "u"], ["i", "s"], ["sh", "ould</w>"], ["the", "m</w>"], ["up", "on</w>"], ["hea", "r"], ["s", "ay</w>"], ["o", "f"], ["k", "now</w>"], ["an", "t</w>"], ["ha", "r"], ["in", "d</w>"], ["t", "t"], ["f", "e"], ["th", "an</w>"], ["ca", "ssi"], ["lo", "o"], ["fi", "r"], ["f", "ri"], ["ver", "y</w>"], ["li", "ke</w>"], ["v", "en</w>"], ["c", "u"], ["p", "ro"], ["g", "ra"], ["mu", "st</w>"], ["mo", "st</w>"], ["t", "us</w>"], ["mar", "k</w>"], ["p", "la"], ["v", "es</w>"], ["m", "p"], ["ma", "y</w>"], ["sp", "ea"], ["ou", "r"], ["wh", "ere</w>"], ["r", "y</w>"], ["th", "ing</w>"], ["ma", "ke</w>"], ["mac", "be"], ["macbe", "th</w>"], ["f", "e</w>"], ["j", "u"], ["w", "ay</w>"], ["som", "e</w>"], ["b", "ru"], ["an", "i"], ["f", "u"], ["gi", "ve</w>"], ["y", "et</w>"], ["ni", "ght</w>"], ["for", "e</w>"], ["su", "ch</w>"], ["s", "en"], ["w", "s</w>"], ["ll", "o</w>"], ["a", "l</w>"], ["bru", "tus</w>"], ["in", "k</w>"], ["o", "the"], ["othe", "llo</w>"], ["se", "e</w>"], ["t", "is</w>"], ["e", "e"], ["si", "r</w>"], ["p", "i"], ["p", "r"], ["a", "c"], ["i", "d</w>"], ["m", "en</w>"], ["o", "b"], ["s", "w"], ["p", "or"], ["e", "y"], ["wh", "y</w>"], ["th", "es"], ["om", "</w>"], ["er", "e"], ["spea", "k</w>"], ["s", "h</w>"], ["ha", "d</w>"], ["lo", "w</w>"], ["la", "dy</w>"], ["o", "se</w>"], ["ti", "o</w>"], ["c", "an</w>"], ["k", "s</w>"], ["c", "le"], ["an", "y</w>"], ["ag", "o</w>"], ["p", "er"], ["i", "ago</w>"], ["s", "er"], ["t", "ed</w>"], ["p", "e"], ["p", "ra"], ["w", "ere</w>"], ["cle", "op"], ["cleop", "at"], ["cleopat", "r"], ["cleopatr", "a</w>"], ["s", "ti"], ["t", "ter</w>"], ["h", "or"], ["o", "c"], ["w", "ar"], ["ta", "ke</w>"], ["wh", "o</w>"], ["fir", "st</w>"], ["ag", "a"], ["i", "us</w>"], ["ti", "me</w>"], ["n", "a"], ["m", "b"], ["un", "t</w>"], ["h", "on"], ["ing", "s</w>"], ["v", "en"], ["h", "e"], ["rom", "e"], ["s", "on</w>"], ["rome", "o</w>"], ["to", "o</w>"], ["w", "a"], ["ex", "e"], ["th", "ink</w>"], ["st", "r"], ["v", "ed</w>"], ["an", "ce</w>"], ["oun", "d</w>"], ["u", "p</w>"], ["d", "er"], ["thes", "e</w>"], ["o", "ther</w>"], ["s", "s"], ["m", "ine</w>"], ["loo", "k</w>"], ["mu", "ch</w>"], ["a", "b"], ["m", "er"], ["t", "ri"], ["exe", "unt</w>"], ["on", "g</w>"], ["l", "u"], ["s", "s</w>"], ["te", "ll</w>"], ["d", "a"], ["d", "ay</w>"], ["no", "r</w>"], ["g", "ent"], ["ro", "w</w>"], ["oc", "ta"], ["octa", "vi"], ["h", "er"], ["v", "o"], ["hea", "r</w>"], ["g", "rea"], ["f", "o"], ["n", "ess</w>"], ["g", "a"], ["c", "an"], ["g", "er</w>"], ["in", "ce</w>"], ["dea", "th</w>"], ["ex", "it</w>"], ["hear", "t</w>"], ["ne", "ver</w>"], ["c", "har"], ["y", "s</w>"], ["a", "f"], ["por", "ti"], ["s", "o"], ["t", "ur"], ["c", "o"], ["at", "e</w>"], ["l", "t</w>"], ["l", "d"], ["h", "an"], ["s", "ed</w>"], ["li", "a</w>"], ["porti", "a</w>"], ["fa", "ther</w>"], ["t", "en"], ["e", "en</w>"], ["wi", "th"], ["u", "se</w>"], ["t", "es</w>"], ["s", "we"], ["r", "ing</w>"], ["on", "s</w>"], ["t", "ch</w>"], ["de", "mon"], ["sc", "en"], ["h", "u"], ["ear", "s</w>"], ["des", "demon"], ["desdemon", "a</w>"], ["qu", "een</w>"], ["k", "no"], ["cassi", "us</w>"], ["cassi", "o</w>"], ["scen", "e</w>"], ["la", "u"], ["b", "an"], ["m", "ent</w>"], ["se", "e"], ["do", "th</w>"], ["ar", "t</w>"], ["m", "en"], ["e", "p</w>"], ["r", "ou"], ["p", "ri"], ["ur", "se</w>"], ["ar", "b"], ["b", "lo"], ["b", "l"], ["octavi", "us</w>"], ["c", "k"], ["c", "oun"], ["d", "one</w>"], ["f", "ear</w>"], ["t", "un"], ["pra", "y</w>"], ["ma", "de</w>"], ["a", "way</w>"], ["s", "le"], ["grea", "t</w>"], ["b", "rea"], ["de", "ed</w>"], ["gu", "e</w>"], ["aga", "in</w>"], ["c", "</w>"], ["hor", "a"], ["hora", "tio</w>"], ["hea", "ven</w>"], ["t", "er"], ["g", "e"]], "token2id": {"<unk>": 0, "<bos>": 1, "<eos>": 2, "the</w>": 3, "t": 4, "ra": 5, "ge": 6, "dy</w>": 7, "of</w>": 8, "antony</w>": 9, "and</w>": 10, "cleopatra</w>": 11, "d": 12, "ma": 13, "tis</w>": 14, "per": 15, "s": 16, "on": 17, "a": 18, "e</w>": 19, "mark</w>": 20, "octavius</w>": 21, "caesar</w>": 22, "m</w>": 23, "e": 24, "mi": 25, "li": 26, "us</w>": 27, "le": 28, "pi": 29, "tri": 30, "u": 31, "m": 32, "vi": 33, "r": 34, "s</w>": 35, "se": 36, "x": 37, "tus</w>": 38, "p": 39, "om": 40, "pe": 41, "ius</w>": 42, "i": 43, "ti": 44, "en": 45, "ob": 46, "arb": 47, "ven": 48, "di": 49, "er": 50, "o": 51, "sc": 52, "ar": 53, "der": 54, "ce": 55, "as</w>": 56, "de": 57, "me": 58, "hi": 59, "l": 60, "o</w>": 61, "fri": 62, "ds</w>": 63, "to</w>": 64, "ca": 65, "ag": 66, "ri": 67, "pp": 68, "a</w>": 69, "do": 70, "la": 71, "be": 72, "ll": 73, "pro": 74, "cu": 75, "th": 76, "y": 77, "re": 78, "ga": 79, "men": 80, "c": 81, "tes</w>": 82, "v": 83, "y</w>": 84, "ta": 85, "ur": 86, "ten": 87, "ant</w>": 88, "g": 89, "al</w>": 90, "ani": 91, "si": 92, "an</w>": 93, "of": 94, "fi": 95, "er</w>": 96, "in</w>": 97, "my</w>": 98, "up": 99, "h": 100, "ba": 101, "sa": 102, "or</w>": 103, "from</w>": 104, "mar": 105, "un": 106, "ch</w>": 107, "es</w>": 108, "at": 109, "an": 110, "ts</w>": 111, "on</w>": 112, "so": 113, "lo": 114, "wn</w>": 115, "queen</w>": 116, "t</w>": 117, "octavi": 118, "st": 119, "wi": 120, "fe</w>": 121, "char": 122, "ers</w>": 123, "ol": 124, "es": 125, "sen": 126, "other</w>": 127, "scene</w>": 128, "ver": 129, "par": 130, "rom": 131, "mp": 132, "ir": 133, "ac": 134, "i</w>": 135, "ro": 136, "om</w>": 137, "pa": 138, "ce</w>": 139, "enter</w>": 140, "n": 141, "ay</w>": 142, "but</w>": 143, "this</w>": 144, "ge</w>": 145, "our</w>": 146, "f": 147, "ws</w>": 148, "ea": 149, "ure</w>": 150, "ose</w>": 151, "his</w>": 152, "go": 153, "ly</w>": 154, "ey": 155, "that</w>": 156, "mu": 157, "w": 158, "ar</w>": 159, "have</w>": 160, "low</w>": 161, "d</w>": 162, "like</w>": 163, "pla": 164, "ted</w>": 165, "now</w>": 166, "b": 167, "end</w>": 168, "tur": 169, "n</w>": 170, "vo": 171, "tion</w>": 172, "their</w>": 173, "w</w>": 174, "upon</w>": 175, "heart</w>": 176, "which</w>": 177, "great</w>": 178, "gh": 179, "hath</w>": 180, "st</w>": 181, "bu": 182, "ck": 183, "brea": 184, "all</w>": 185, "te": 186, "is</w>": 187, "come</w>": 188, "co": 189, "l</w>": 190, "gi": 191, "lu": 192, "ou": 193, "sh</w>": 194, "her</w>": 195, "with</w>": 196, "ch": 197, "ing</w>": 198, "look</w>": 199, "where</w>": 200, "they</w>": 201, "take</w>": 202, "good</w>": 203, "no": 204, "te</w>": 205, "you</w>": 206, "shall</w>": 207, "see</w>": 208, "him</w>": 209, "le</w>": 210, "r</w>": 211, "wor": 212, "ld</w>": 213, "for": 214, "in": 215, "ru": 216, "et</w>": 217, "fo": 218, "ho": 219, "if</w>": 220, "it</w>": 221, "be</w>": 222, "love</w>": 223, "deed</w>": 224, "tell</w>": 225, "me</w>": 226, "how</w>": 227, "much</w>": 228, "there</w>": 229, "can</w>": 230, "ll</w>": 231, "our": 232, "fa": 233, "ved</w>": 234, "then</w>": 235, "must</w>": 236, "thou</w>": 237, "ne": 238, "ind</w>": 239, "out</w>": 240, "heaven</w>": 241, "ear": 242, "th</w>": 243, "lord</w>": 244, "gra": 245, "su": 246, "hear</w>": 247, "them</w>": 248, "fu": 249, "ance</w>": 250, "ry</w>": 251, "who</w>": 252, "kno": 253, "ed</w>": 254, "not</w>": 255, "ent</w>": 256, "po": 257, "ate</w>": 258, "do</w>": 259, "k": 260, "ing": 261, "se</w>": 262, "el": 263, "we</w>": 264, "da": 265, "thee</w>": 266, "most</w>": 267, "here</w>": 268, "ger</w>": 269, "your</w>": 270, "ssi": 271, "ere": 272, "fore</w>": 273, "ess</w>": 274, "would</w>": 275, "say</w>": 276, "bo": 277, "am</w>": 278, "sh": 279, "est</w>": 280, "blo": 281, "od</w>": 282, "ine</w>": 283, "so</w>": 284, "thy</w>": 285, "ee": 286, "k</w>": 287, "ys</w>": 288, "sha": 289, "when</w>": 290, "gu": 291, "let</w>": 292, "lt</w>": 293, "de</w>": 294, "sp": 295, "are</w>": 296, "fe": 297, "man</w>": 298, "bl": 299, "such</w>": 300, "ir</w>": 301, "mb": 302, "wa": 303, "ment</w>": 304, "we": 305, "up</w>": 306, "ex": 307, "why</w>": 308, "did</w>": 309, "he</w>": 310, "see": 311, "will</w>": 312, "self</w>": 313, "sti": 314, "by</w>": 315, "for</w>": 316, "con": 317, "ound</w>": 318, "time</w>": 319, "ence</w>": 320, "har": 321, "ves</w>": 322, "should</w>": 323, "tch</w>": 324, "thou": 325, "some</w>": 326, "lea": 327, "what</w>": 328, "or": 329, "ght</w>": 330, "wh": 331, "very</w>": 332, "thing</w>": 333, "com": 334, "lau": 335, "gh</w>": 336, "ep</w>": 337, "make</w>": 338, "no</w>": 339, "al": 340, "one</w>": 341, "night</w>": 342, "der</w>": 343, "rou": 344, "qu": 345, "op": 346, "des": 347, "speak</w>": 348, "exeunt</w>": 349, "anton": 350, "pri": 351, "z": 352, "sir</w>": 353, "som": 354, "too</w>": 355, "ty</w>": 356, "go</w>": 357, "spea": 358, "ks</w>": 359, "at</w>": 360, "tter</w>": 361, "mor": 362, "row</w>": 363, "ha": 364, "swe": 365, "any</w>": 366, "ab": 367, "pra": 368, "is": 369, "hu": 370, "hor": 371, "know</w>": 372, "ings</w>": 373, "tt": 374, "rea": 375, "ring</w>": 376, "ban": 377, "hea": 378, "ink</w>": 379, "give</w>": 380, "tun": 381, "pray</w>": 382, "yet</w>": 383, "than</w>": 384, "h</w>": 385, "id</w>": 386, "</w>": 387, "pr": 388, "ci": 389, "ve</w>": 390, "more</w>": 391, "had</w>": 392, "ther</w>": 393, "ver</w>": 394, "king</w>": 395, "her": 396, "j": 397, "may</w>": 398, "str": 399, "lady</w>": 400, "ser": 401, "ong</w>": 402, "en</w>": 403, "ld": 404, "na": 405, "think</w>": 406, "mine</w>": 407, "ni": 408, "can": 409, "ear</w>": 410, "day</w>": 411, "she</w>": 412, "well</w>": 413, "were</w>": 414, "men</w>": 415, "hear": 416, "han": 417, "loo": 418, "dea": 419, "p</w>": 420, "the": 421, "sel": 422, "was</w>": 423, "sed</w>": 424, "ck</w>": 425, "first</w>": 426, "aga": 427, "made</w>": 428, "coun": 429, "ter</w>": 430, "war": 431, "done</w>": 432, "tru": 433, "death</w>": 434, "f</w>": 435, "whi": 436, "ince</w>": 437, "gue</w>": 438, "unt</w>": 439, "to": 440, "ble</w>": 441, "exit</w>": 442, "these</w>": 443, "ness</w>": 444, "ous</w>": 445, "ears</w>": 446, "doth</w>": 447, "again</w>": 448, "ould</w>": 449, "ant": 450, "ord</w>": 451, "oc": 452, "away</w>": 453, "use</w>": 454, "ons</w>": 455, "grea": 456, "por": 457, "never</w>": 458, "with": 459, "ent": 460, "mo": 461, "sw": 462, "ven</w>": 463, "son</w>": 464, "way</w>": 465, "ss</w>": 466, "fear</w>": 467, "ke</w>": 468, "ter": 469, "art</w>": 470, "c</w>": 471, "pu": 472, "father</w>": 473, "hon": 474, "fir": 475, "af": 476, "nor</w>": 477, "du": 478, "ju": 479, "g</w>": 480, "you": 481, "sle": 482, "he": 483, "oun": 484, "mon": 485, "mer": 486, "ss": 487, "gent": 488, "ere</w>": 489, "wha": 490, "ham": 491, "brutus</w>": 492, "cassius</w>": 493, "caes": 494, "scen": 495, "lia</w>": 496, "exe": 497, "mac": 498, "urse</w>": 499, "thes": 500, "een</w>": 501, "llo</w>": 502, "cle": 503, "hamlet</w>": 504, "horatio</w>": 505, "demon": 506, "porti": 507, "bru": 508, "ago</w>": 509, "portia</w>": 510, "macbeth</w>": 511, "tio</w>": 512, "iago</w>": 513, "othello</w>": 514, "desdemona</w>": 515, "cassio</w>": 516, "rome": 517, "romeo</w>": 518}, "id2token": {"0": "<unk>", "1": "<bos>", "2": "<eos>", "3": "the</w>", "4": "t", "5": "ra", "6": "ge", "7": "dy</w>", "8": "of</w>", "9": "antony</w>", "10": "and</w>", "11": "cleopatra</w>", "12": "d", "13": "ma", "14": "tis</w>", "15": "per", "16": "s", "17": "on", "18": "a", "19": "e</w>", "20": "mark</w>", "21": "octavius</w>", "22": "caesar</w>", "23": "m</w>", "24": "e", "25": "mi", "26": "li", "27": "us</w>", "28": "le", "29": "pi", "30": "tri", "31": "u", "32": "m", "33": "vi", "34": "r", "35": "s</w>", "36": "se", "37": "x", "38": "tus</w>", "39": "p", "40": "om", "41": "pe", "42": "ius</w>", "43": "i", "44": "ti", "45": "en", "46": "ob", "47": "arb", "48": "ven", "49": "di", "50": "er", "51": "o", "52": "sc", "53": "ar", "54": "der", "55": "ce", "56": "as</w>", "57": "de", "58": "me", "59": "hi", "60": "l", "61": "o</w>", "62": "fri", "63": "ds</w>", "64": "to</w>", "65": "ca", "66": "ag", "67": "ri", "68": "pp", "69": "a</w>", "70": "do", "71": "la", "72": "be", "73": "ll", "74": "pro", "75": "cu", "76": "th", "77": "y", "78": "re", "79": "ga", "80": "men", "81": "c", "82": "tes</w>", "83": "v", "84": "y</w>", "85": "ta", "86": "ur", "87": "ten", "88": "ant</w>", "89": "g", "90": "al</w>", "91": "ani", "92": "si", "93": "an</w>", "94": "of", "95": "fi", "96": "er</w>", "97": "in</w>", "98": "my</w>", "99": "up", "100": "h", "101": "ba", "102": "sa", "103": "or</w>", "104": "from</w>", "105": "mar", "106": "un", "107": "ch</w>", "108": "es</w>", "109": "at", "110": "an", "111": "ts</w>", "112": "on</w>", "113": "so", "114": "lo", "115": "wn</w>", "116": "queen</w>", "117": "t</w>", "118": "octavi", "119": "st", "120": "wi", "121": "fe</w>", "122": "char", "123": "ers</w>", "124": "ol", "125": "es", "126": "sen", "127": "other</w>", "128": "scene</w>", "129": "ver", "130": "par", "131": "rom", "132": "mp", "133": "ir", "134": "ac", "135": "i</w>", "136": "ro", "137": "om</w>", "138": "pa", "139": "ce</w>", "140": "enter</w>", "141": "n", "142": "ay</w>", "143": "but</w>", "144": "this</w>", "145": "ge</w>", "146": "our</w>", "147": "f", "148": "ws</w>", "149": "ea", "150": "ure</w>", "151": "ose</w>", "152": "his</w>", "153": "go", "154": "ly</w>", "155": "ey", "156": "that</w>", "157": "mu", "158": "w", "159": "ar</w>", "160": "have</w>", "161": "low</w>", "162": "d</w>", "163": "like</w>", "164": "pla", "165": "ted</w>", "166": "now</w>", "167": "b", "168": "end</w>", "169": "tur", "170": "n</w>", "171": "vo", "172": "tion</w>", "173": "their</w>", "174": "w</w>", "175": "upon</w>", "176": "heart</w>", "177": "which</w>", "178": "great</w>", "179": "gh", "180": "hath</w>", "181": "st</w>", "182": "bu", "183": "ck", "184": "brea", "185": "all</w>", "186": "te", "187": "is</w>", "188": "come</w>", "189": "co", "190": "l</w>", "191": "gi", "192": "lu", "193": "ou", "194": "sh</w>", "195": "her</w>", "196": "with</w>", "197": "ch", "198": "ing</w>", "199": "look</w>", "200": "where</w>", "201": "they</w>", "202": "take</w>", "203": "good</w>", "204": "no", "205": "te</w>", "206": "you</w>", "207": "shall</w>", "208": "see</w>", "209": "him</w>", "210": "le</w>", "211": "r</w>", "212": "wor", "213": "ld</w>", "214": "for", "215": "in", "216": "ru", "217": "et</w>", "218": "fo", "219": "ho", "220": "if</w>", "221": "it</w>", "222": "be</w>", "223": "love</w>", "224": "deed</w>", "225": "tell</w>", "226": "me</w>", "227": "how</w>", "228": "much</w>", "229": "there</w>", "230": "can</w>", "231": "ll</w>", "232": "our", "233": "fa", "234": "ved</w>", "235": "then</w>", "236": "must</w>", "237": "thou</w>", "238": "ne", "239": "ind</w>", "240": "out</w>", "241": "heaven</w>", "242": "ear", "243": "th</w>", "244": "lord</w>", "245": "gra", "246": "su", "247": "hear</w>", "248": "them</w>", "249": "fu", "250": "ance</w>", "251": "ry</w>", "252": "who</w>", "253": "kno", "254": "ed</w>", "255": "not</w>", "256": "ent</w>", "257": "po", "258": "ate</w>", "259": "do</w>", "260": "k", "261": "ing", "262": "se</w>", "263": "el", "264": "we</w>", "265": "da", "266": "thee</w>", "267": "most</w>", "268": "here</w>", "269": "ger</w>", "270": "your</w>", "271": "ssi", "272": "ere", "273": "fore</w>", "274": "ess</w>", "275": "would</w>", "276": "say</w>", "277": "bo", "278": "am</w>", "279": "sh", "280": "est</w>", "281": "blo", "282": "od</w>", "283": "ine</w>", "284": "so</w>", "285": "thy</w>", "286": "ee", "287": "k</w>", "288": "ys</w>", "289": "sha", "290": "when</w>", "291": "gu", "292": "let</w>", "293": "lt</w>", "294": "de</w>", "295": "sp", "296": "are</w>", "297": "fe", "298": "man</w>", "299": "bl", "300": "such</w>", "301": "ir</w>", "302": "mb", "303": "wa", "304": "ment</w>", "305": "we", "306": "up</w>", "307": "ex", "308": "why</w>", "309": "did</w>", "310": "he</w>", "311": "see", "312": "will</w>", "313": "self</w>", "314": "sti", "315": "by</w>", "316": "for</w>", "317": "con", "318": "ound</w>", "319": "time</w>", "320": "ence</w>", "321": "har", "322": "ves</w>", "323": "should</w>", "324": "tch</w>", "325": "thou", "326": "some</w>", "327": "lea", "328": "what</w>", "329": "or", "330": "ght</w>", "331": "wh", "332": "very</w>", "333": "thing</w>", "334": "com", "335": "lau", "336": "gh</w>", "337": "ep</w>", "338": "make</w>", "339": "no</w>", "340": "al", "341": "one</w>", "342": "night</w>", "343": "der</w>", "344": "rou", "345": "qu", "346": "op", "347": "des", "348": "speak</w>", "349": "exeunt</w>", "350": "anton", "351": "pri", "352": "z", "353": "sir</w>", "354": "som", "355": "too</w>", "356": "ty</w>", "357": "go</w>", "358": "spea", "359": "ks</w>", "360": "at</w>", "361": "tter</w>", "362": "mor", "363": "row</w>", "364": "ha", "365": "swe", "366": "any</w>", "367": "ab", "368": "pra", "369": "is", "370": "hu", "371": "hor", "372": "know</w>", "373": "ings</w>", "374": "tt", "375": "rea", "376": "ring</w>", "377": "ban", "378": "hea", "379": "ink</w>", "380": "give</w>", "381": "tun", "382": "pray</w>", "383": "yet</w>", "384": "than</w>", "385": "h</w>", "386": "id</w>", "387": "</w>", "388": "pr", "389": "ci", "390": "ve</w>", "391": "more</w>", "392": "had</w>", "393": "ther</w>", "394": "ver</w>", "395": "king</w>", "396": "her", "397": "j", "398": "may</w>", "399": "str", "400": "lady</w>", "401": "ser", "402": "ong</w>", "403": "en</w>", "404": "ld", "405": "na", "406": "think</w>", "407": "mine</w>", "408": "ni", "409": "can", "410": "ear</w>", "411": "day</w>", "412": "she</w>", "413": "well</w>", "414": "were</w>", "415": "men</w>", "416": "hear", "417": "han", "418": "loo", "419": "dea", "420": "p</w>", "421": "the", "422": "sel", "423": "was</w>", "424": "sed</w>", "425": "ck</w>", "426": "first</w>", "427": "aga", "428": "made</w>", "429": "coun", "430": "ter</w>", "431": "war", "432": "done</w>", "433": "tru", "434": "death</w>", "435": "f</w>", "436": "whi", "437": "ince</w>", "438": "gue</w>", "439": "unt</w>", "440": "to", "441": "ble</w>", "442": "exit</w>", "443": "these</w>", "444": "ness</w>", "445": "ous</w>", "446": "ears</w>", "447": "doth</w>", "448": "again</w>", "449": "ould</w>", "450": "ant", "451": "ord</w>", "452": "oc", "453": "away</w>", "454": "use</w>", "455": "ons</w>", "456": "grea", "457": "por", "458": "never</w>", "459": "with", "460": "ent", "461": "mo", "462": "sw", "463": "ven</w>", "464": "son</w>", "465": "way</w>", "466": "ss</w>", "467": "fear</w>", "468": "ke</w>", "469": "ter", "470": "art</w>", "471": "c</w>", "472": "pu", "473": "father</w>", "474": "hon", "475": "fir", "476": "af", "477": "nor</w>", "478": "du", "479": "ju", "480": "g</w>", "481": "you", "482": "sle", "483": "he", "484": "oun", "485": "mon", "486": "mer", "487": "ss", "488": "gent", "489": "ere</w>", "490": "wha", "491": "ham", "492": "brutus</w>", "493": "cassius</w>", "494": "caes", "495": "scen", "496": "lia</w>", "497": "exe", "498": "mac", "499": "urse</w>", "500": "thes", "501": "een</w>", "502": "llo</w>", "503": "cle", "504": "hamlet</w>", "505": "horatio</w>", "506": "demon", "507": "porti", "508": "bru", "509": "ago</w>", "510": "portia</w>", "511": "macbeth</w>", "512": "tio</w>", "513": "iago</w>", "514": "othello</w>", "515": "desdemona</w>", "516": "cassio</w>", "517": "rome", "518": "romeo</w>"}, "frozen": true}